/* Generated by tools/build_model.py -- v1 "ambient" model blob.
 * Regenerate with:  python tools/build_model.py  */
#ifndef MODEL_BUILTIN_H
#define MODEL_BUILTIN_H

#include <stdint.h>

static const uint8_t model_builtin[] = {
	0x49, 0x4f, 0x54, 0x4d, 0x01, 0x00, 0x01, 0x00, 0x02, 0x02, 0x03, 0x04,
	0x64, 0x61, 0x72, 0x6b, 0x00, 0x00, 0x00, 0x00, 0x00, 0x00, 0x00, 0x00,
	0x64, 0x69, 0x6d, 0x00, 0x00, 0x00, 0x00, 0x00, 0x00, 0x00, 0x00, 0x00,
	0x62, 0x72, 0x69, 0x67, 0x68, 0x74, 0x00, 0x00, 0x00, 0x00, 0x00, 0x00,
	0x00, 0x00, 0x00, 0x00, 0x00, 0x00, 0x00, 0x00, 0x00, 0x00, 0x00, 0x00,
	0x54, 0xb7, 0xff, 0xc7, 0x00, 0x00, 0x00, 0x00, 0x00, 0x00, 0x80, 0x3f,
	0x00, 0x00, 0x00, 0x00, 0x00, 0x00, 0x80, 0x3f, 0xcd, 0xcc, 0x4c, 0xbe,
	0x9a, 0x99, 0x19, 0xbf, 0x00, 0x00, 0x7a, 0xc4, 0x00, 0x00, 0x00, 0x00,
	0x00, 0x00, 0x7a, 0x44, 0x00, 0x24, 0x74, 0xc9, 0x00, 0x00, 0x00, 0x00,
	0x00, 0x24, 0x74, 0x49, 0x00, 0x00, 0x00, 0x3f, 0x00, 0x00, 0x00, 0x00,
	0x00, 0x00, 0x00, 0xbf,
};

#endif /* MODEL_BUILTIN_H */
